20
20
20
20
20
20
1e
20
20
20
1f
20
20
20
1c
1a
1b
1f
20
20
1e
1e
19
19
16
1c
26
26
27
20
25
23
0c
1a
0e
1a
17
19
29
13
2c
27
31
3a
2a
21
27
2b
26
24
31
2b
1b
08
39
1c
02
14
11
24
0b
16
28
2b
06
13
1c
20
2c
3c
21
35
34
37
2d
33
03
09
27
2d
34
2f
2b
31
2e
01
10
2c
28
27
12
3d
09
33
1d
16
01
3e
00
28
00
30
3e
14
37
03
31
0e
2e
13
01
3b
0c
04
04
19
03
03
04
01
26
3a
19
0a
0f
05
01
0a
15
03
01
02
22
35
0c
13
26
21
19
08
2d
15
09
14
21
21
22
0b
1c
23
1b
22
2b
31
0f
23
2d
2b
03
09
16
18
31
22
00
08
10
26
2b
2b
0e
19
21
2c
0e
12
16
10
0e
18
26
14
21
15
0f
1c
23
30
18
18
18
10
17
1a
1f
20
1f
20
20
20
20
20
20
20
20
20
1e
20
20
20
25
2a
19
11
0a
1d
18
1a
19
19
2a
14
33
29
17
26
15
27
25
2a
19
11
0a
1d
18
1a
19
19
22
1b
11
10
2a
19
20
23
0b
07
29
26
1b
1b
29
38
2c
2f
32
1d
13
1b
29
26
2f
0b
0b
07
1d
01
2f
1f
20
0c
35
10
24
17
02
03
01
23
01
01
03
04
14
1a
19
30
22
1d
2c
2a
19
06
01
19
07
26
19
14
1b
02
0e
34
01
07
00
04
20
1a
06
23
36
2b
11
26
3f
0e
12
2a
12
2c
01
04
19
03
20
1a
06
23
36
2b
0d
10
02
38
1b
04
18
10
0d
1a
3b
22
28
27
2a
36
24
27
1d
04
0b
2c
3a
1e
21
13
0d
1a
3b
22
28
27
25
2b
26
14
16
10
0e
12
2b
18
21
15
0f
1c
28
0b
1d
1a
28
39
20
1e
16
10
17
18
2b
18
1c
1a
1b
1f
20
20
20
1e
19
19
16
1c
26
26
27
22
25
23
0c
1a
10
1a
19
19
29
13
2d
28
28
1d
2d
22
27
2d
28
24
14
1c
1d
07
09
1a
07
07
0c
0d
04
03
1e
15
20
1a
28
24
12
15
18
10
19
19
32
34
19
2e
0a
2c
24
25
20
38
1a
21
24
1a
33
27
35
11
1e
10
05
1f
11
0b
01
2d
07
36
28
01
03
03
1c
1d
03
21
02
16
00
00
0c
20
2c
35
1a
04
07
21
00
04
01
02
03
0c
01
01
01
28
14
12
04
02
0d
1b
2c
0e
0f
0b
14
25
22
26
12
01
06
14
21
27
0a
29
37
14
03
29
2e
18
13
34
34
1e
25
1f
18
0b
25
1e
0b
1e
37
22
1c
2c
18
28
0f
27
2c
0b
12
21
1f
1d
23
16
0d
12
2e
27
00
08
0f
26
2c
2f
1d
18
21
2f
17
18
16
10
0e
18
26
14
25
2a
19
11
0a
1d
18
1a
17
19
29
14
34
28
16
26
15
26
25
28
19
11
0a
1d
16
1a
17
19
23
19
06
0c
39
29
2c
29
28
18
1d
1a
30
3b
15
30
3d
19
0f
1b
1a
2c
2e
2d
3d
14
28
18
14
21
3a
2e
1b
38
07
12
0b
18
20
09
24
0c
02
01
10
30
04
29
18
34
0c
2e
02
1a
18
00
28
38
28
35
0a
1e
2b
13
32
0c
03
1a
21
1a
24
13
3d
04
2e
29
0f
0d
0c
25
0d
16
07
24
02
07
18
1b
05
1d
14
27
04
15
0d
03
01
3f
02
05
04
1d
0c
04
16
03
15
20
30
02
34
03
08
07
01
07
28
37
04
00
0c
04
03
04
11
35
17
11
08
06
10
13
05
27
12
02
0f
32
2c
2d
11
04
08
15
24
18
21
14
14
16
12
2c
12
02
1f
2a
0b
2c
1f
2c
0e
12
25
09
1f
15
0e
1c
28
22
25
22
0c
1a
10
1a
19
19
2a
13
2d
28
31
3c
2a
21
27
2b
28
24
31
2b
1b
08
39
1c
02
13
11
24
0b
16
2a
2b
06
13
1c
20
2c
3a
1a
32
25
30
2d
33
03
09
15
29
30
2c
14
10
1d
19
1f
3a
11
1f
11
20
05
17
3b
22
1b
31
0b
07
0c
22
13
24
28
35
3d
1f
0d
1a
27
3e
21
03
01
20
06
08
29
31
18
0f
11
2d
0e
09
01
25
05
14
29
18
0d
03
01
01
16
08
14
0a
00
17
0d
19
18
14
01
0e
06
08
3a
31
22
01
2a
15
08
20
1d
35
2d
03
12
27
0b
1f
06
0b
01
1a
20
12
0e
37
09
01
22
38
1c
16
06
14
31
14
22
0b
01
04
2a
12
0b
11
1b
1e
19
08
23
1d
0e
0f
1f
21
2a
2d
1c
23
1b
22
2b
31
14
28
24
26
23
16
0d
12
2e
27
00
0b
01
1d
10
0a
18
27
25
28
19
12
0a
1c
13
19
08
39
22
1b
11
10
2a
19
20
23
0b
07
28
26
1b
1a
28
38
2c
2f
32
1d
13
1b
29
26
2f
0b
0b
07
09
0d
0a
14
1a
33
35
0a
09
06
0f
2b
32
17
01
01
04
18
12
1a
12
18
1b
12
2b
1f
30
27
1b
16
2c
02
03
06
2a
26
12
0f
04
37
24
2b
10
03
22
13
1d
0d
31
09
3a
0b
02
09
2b
26
2c
32
37
26
15
00
1e
2d
18
11
04
05
21
30
28
3a
34
2b
13
14
38
2c
37
04
03
1e
29
16
00
02
34
2a
04
1c
34
27
28
2d
02
04
0f
03
29
22
28
1a
2e
2c
2c
0f
21
1b
01
2e
3c
27
01
04
27
20
3a
24
06
23
2f
2e
14
0a
28
35
1d
04
16
05
01
11
3b
22
26
1c
27
36
24
27
04
16
0c
2c
3a
21
17
12
0e
1a
0a
12
17
2c
11
09
2a
24
28
20
25
22
33
2b
07
01
1e
23
06
07
0c
0d
04
03
1e
15
20
1a
28
24
12
15
15
0e
1e
19
32
35
19
2e
28
24
21
23
11
14
08
08
19
0c
2e
24
22
07
36
3c
20
30
30
33
23
23
18
0f
18
0f
08
38
2d
2f
27
28
23
24
14
28
1d
15
2d
05
08
2f
01
02
1c
13
24
1a
0d
13
2b
1b
1f
02
03
07
00
04
07
2a
0e
17
13
10
14
1b
03
17
05
0d
02
03
00
05
15
06
02
04
19
10
0e
3e
0c
02
20
09
00
1c
01
11
27
2b
1e
19
13
0e
20
25
1e
0c
01
1e
14
17
1d
20
38
38
1d
36
1a
29
39
03
01
27
10
21
2e
30
1a
25
2e
22
0f
01
05
12
19
2c
08
17
36
13
32
18
2e
18
13
34
35
1e
25
22
1b
02
28
06
08
11
21
21
22
0b
11
17
09
22
35
19
2c
25
0a
2f
27
03
20
17
24
18
25
24
11
31
3b
25
2f
28
0f
1b
1a
2a
1b
29
36
10
38
22
37
2c
1a
0e
17
34
13
16
0f
1f
01
00
01
12
03
0f
04
00
14
35
1f
0b
33
0f
16
24
1f
00
0d
09
01
35
03
0f
04
00
15
35
03
04
05
26
25
18
21
14
14
17
12
2c
12
02
10
32
2c
2d
02
0a
19
03
11
0c
2b
0f
03
14
2a
0b
09
05
18
08
03
26
21
16
10
09
29
02
18
11
02
16
15
17
05
06
27
22
2a
28
23
16
16
17
25
22
0e
1e
27
1f
0e
18
12
26
2e
2d
3d
14
26
18
37
2d
1a
0e
17
34
13
16
0f
1f
01
00
01
12
09
04
04
02
1e
13
17
3c
32
11
02
1b
1f
00
02
1b
01
2a
02
13
02
00
12
35
03
0f
0a
20
31
15
2a
26
18
14
11
28
2c
05
23
28
30
31
20
20
20
20
20
20
1f
20
20
20
20
20
20
20
23
25
26
20
20
20
1f
23
1d
1e
1d
22
33
23
1e
1d
16
12
25
2b
1b
23
1e
1e
16
19
22
1a
12
1f
1c
22
25
26
0e
13
1d
1c
0a
16
1f
2d
0c
09
24
22
1e
1b
1e
2c
10
20
39
1e
2d
22
24
15
25
1a
24
23
17
1c
03
08
31
1b
02
0e
35
16
1f
0b
26
14
1b
1c
00
02
35
19
01
0c
2f
15
01
24
11
03
00
1f
09
00
32
1a
01
15
34
20
01
08
35
19
03
1e
0f
14
1f
16
07
18
0c
1f
09
16
36
31
1d
08
11
16
02
02
16
26
1d
22
02
0a
19
20
1e
0b
17
28
2f
32
2a
23
04
07
26
25
23
2c
20
1f
19
28
0f
0b
22
29
29
1c
2a
20
19
12
1c
18
21
23
12
0d
1f
25
27
1c
29
20
18
0f
1e
18
21
23
1e
20
20
20
20
20
20
20
20
20
20
20
20
20
1f
20
20
20
2a
21
26
24
25
2b
15
24
1e
1e
16
15
27
1b
1b
25
1f
22
2a
21
26
24
25
2b
15
24
1e
1e
13
0b
14
11
0a
14
1a
2e
08
0f
03
00
12
10
0a
17
01
02
06
05
24
1a
14
13
12
24
08
0f
1d
01
04
09
06
05
18
05
15
0f
04
28
20
25
31
16
04
03
21
11
1e
14
0d
00
0e
1d
03
12
02
28
0d
0b
34
15
0c
03
14
0d
20
06
0e
0c
13
0b
03
1e
0e
17
1e
14
13
17
0b
17
1a
14
10
03
12
11
13
0b
03
1e
0e
17
38
1f
01
11
0b
0f
1d
2f
17
25
17
16
09
10
12
1a
1b
0c
31
24
23
15
02
01
16
0c
17
25
17
16
09
10
04
04
17
0f
21
24
1c
18
20
26
27
1c
29
20
32
30
26
1f
17
0e
21
20
21
23
1f
20
20
26
23
25
26
20
20
20
20
23
1d
1e
1d
22
33
23
1d
1d
16
12
25
2b
1b
23
1e
1e
16
19
22
1a
08
19
1e
23
24
26
0e
14
10
1a
0a
17
12
0b
17
1d
1c
24
18
1d
0e
10
12
1f
06
01
13
0f
10
14
11
05
0f
1d
0e
09
0c
0b
07
02
22
29
1d
07
15
0c
0c
19
16
04
16
0a
03
26
1a
2f
01
22
24
0b
1e
18
09
03
0e
00
02
25
12
06
2e
2f
1f
29
19
3a
0b
03
05
06
0f
03
0c
14
10
0c
0e
14
36
32
0d
0e
0d
13
35
26
17
11
2b
27
07
0a
16
09
10
10
02
0a
17
03
0d
1b
08
04
00
0f
17
0c
16
0a
02
0a
1a
0c
05
11
27
16
05
04
02
01
19
0d
18
2e
29
22
1b
1d
0f
15
1a
0a
08
00
1e
17
1a
2e
0e
0b
22
29
2a
1c
27
1f
19
11
1f
20
21
23
12
0d
1f
25
2a
21
26
24
25
2b
15
24
1e
1e
16
15
27
1b
1b
25
1f
22
2b
21
26
24
25
2b
15
24
1e
1e
0b
02
0d
0d
0f
13
1f
2b
14
0f
34
1e
30
25
08
04
12
18
27
16
1e
15
03
08
19
20
14
0f
3a
22
1f
11
0f
06
18
20
1f
1e
2b
2f
1b
0e
33
12
19
19
24
1b
26
21
04
1d
07
20
02
1b
3b
31
02
0d
38
15
1d
23
0e
04
0d
0c
13
14
14
21
1b
2e
24
0a
1d
0c
1a
05
0a
19
20
21
09
06
30
1f
11
21
28
03
17
1f
2a
1e
11
11
2e
3c
23
27
12
10
1f
1e
19
13
19
18
0d
26
34
1a
01
16
29
23
03
1e
12
10
25
22
0b
11
17
12
1a
14
16
1f
1b
0e
16
21
0e
1a
26
27
21
17
1c
23
1b
1e
15
0c
16
1f
1e
16
16
21
1b
13
23
18
19
12
1d
18
21
29
26
1c
29
20
1d
1d
16
12
25
2b
1b
23
1e
1e
16
19
22
1a
11
1f
1c
22
25
26
0e
13
1d
1c
0a
16
1f
2d
0c
09
24
22
1e
1b
1e
2c
10
20
39
1e
2d
22
32
29
26
14
24
23
17
1a
04
0d
31
1d
2f
15
37
34
1f
14
01
39
1a
1a
07
00
2f
2d
12
1c
2a
22
0d
1e
1a
1a
01
08
23
12
2f
2d
06
27
0d
2e
26
30
33
2c
1d
20
24
07
07
06
15
2c
02
2a
0b
17
1a
0a
16
30
15
02
35
23
1c
1d
2b
38
1d
28
02
34
17
30
0e
23
1d
36
1b
25
1c
1a
23
1a
17
23
04
21
1c
20
30
20
1a
21
2a
26
1a
23
29
24
05
20
0f
18
25
13
11
28
33
22
1b
33
26
37
20
0a
11
1a
03
02
16
26
1f
1f
03
04
1a
22
20
0d
17
28
2f
32
2a
23
0f
11
1b
0c
08
00
1e
17
1a
2e
0d
0b
27
20
10
1f
21
23
2b
21
26
25
22
26
16
24
35
25
13
0b
14
11
0a
14
1a
2e
08
0f
03
00
12
10
0a
17
01
02
07
05
24
1a
14
13
12
24
08
0f
09
01
09
08
01
0b
15
04
09
0f
0d
3a
23
0f
31
12
00
18
05
06
24
18
0f
0f
08
21
01
12
30
19
03
14
32
11
15
18
06
06
05
33
23
0c
09
11
0d
21
03
01
30
1e
0a
0a
08
1b
25
12
31
2e
2f
0e
06
0b
21
1c
0d
0c
2c
2d
21
1a
30
33
13
1d
22
08
16
0b
20
04
0c
17
12
1b
2e
2e
30
1f
2c
26
14
1d
0e
1d
0d
02
10
0b
2a
29
0f
0c
0e
1d
14
0d
37
15
10
17
13
1d
0d
04
1a
18
2e
2f
04
1e
0d
1d
3a
22
13
14
2b
1a
28
33
17
1e
18
16
09
14
0f
1a
1b
0c
2f
13
24
14
02
01
14
0c
17
25
08
03
0e
1c
21
2b
1c
1c
1e
1d
16
12
1d
1c
0e
22
2b
2e
17
1d
1c
24
19
1d
0e
10
12
1f
06
01
13
0f
08
0d
1b
0d
10
1d
0e
09
0e
0b
05
01
15
0e
06
09
1d
1d
0f
18
12
09
17
0a
08
35
23
31
30
34
21
21
08
18
14
10
17
09
09
34
18
2d
2f
36
16
2d
05
30
15
13
22
03
04
2d
26
34
12
26
13
29
3b
37
14
17
18
03
27
10
19
19
2e
2f
24
2e
1b
2e
1d
16
2d
0a
01
17
1c
28
10
22
29
29
02
2f
05
19
18
08
0f
25
1b
21
2d
38
30
28
21
29
0a
19
26
15
25
35
0d
23
2a
31
14
16
30
33
0d
16
2e
19
24
36
19
2a
2c
2c
11
16
32
30
0b
13
02
11
1e
0e
15
19
07
04
02
11
17
0c
16
0a
02
0a
1a
0c
1e
18
1f
1d
1d
21
19
20
1d
0b
15
1f
2e
26
1d
1b
1f
2a
1b
29
09
15
0f
0e
15
0f
04
02
25
2c
0c
0a
12
12
27
16
1e
18
04
0d
17
22
39
18
30
1e
17
12
08
00
1d
21
21
20
35
1b
02
0a
34
17
02
1e
13
0d
20
1e
08
00
0f
1c
00
1d
35
1b
01
14
34
17
01
1e
13
0d
1b
1f
01
0c
1b
1e
15
0c
18
1f
1e
16
16
21
0e
1a
26
27
2c
26
1d
30
39
23
0d
10
14
1d
29
12
04
09
18
33
16
38
2d
25
24
23
2b
1a
23
1e
26
28
30
12
10
1c
0d
24
1f
2b
16
11
35
21
2f
00
03
03
1b
15
27
17
1b
0d
03
08
19
20
14
0f
30
1e
17
12
08
00
1d
21
21
20
35
1b
02
0a
24
19
16
23
0e
07
1e
17
08
00
0e
1c
00
1d
33
24
01
14
35
1a
04
21
13
0d
17
1a
02
0f
17
14
23
27
19
1e
1f
14
05
11
1b
2a
2b
1a
20
1f
20
20
20
20
21
20
20
21
21
20
1f
20
09
04
1c
31
20
1f
20
15
2f
23
30
28
39
31
12
2e
1c
1e
13
1a
1f
27
2e
23
22
2b
32
2d
23
13
20
13
12
18
30
21
1a
18
29
32
03
06
2b
2c
1d
15
15
31
1c
13
04
09
20
00
17
0e
15
37
0a
02
07
0d
12
15
01
05
04
00
00
06
04
00
2f
10
07
20
2e
09
33
2a
11
01
03
03
26
18
14
0d
05
03
01
0c
0e
0e
06
00
05
05
15
01
00
0a
0c
06
27
2e
3a
33
0f
1e
19
02
35
35
04
22
18
00
0c
05
15
2a
16
1d
0b
1a
2f
04
0e
22
14
15
06
22
27
01
16
25
24
38
3d
16
18
1b
39
27
18
2a
23
01
2c
34
01
01
01
02
15
0e
02
07
0b
10
2a
08
01
17
0a
1e
0d
16
16
0a
02
02
15
19
2b
08
16
1b
1d
20
21
20
1f
1f
20
1f
20
20
20
21
21
20
1f
20
2c
2f
1d
24
1e
2d
2a
14
2e
24
23
34
25
2c
1d
07
38
2f
2c
2f
1d
24
1e
2d
2a
14
2e
24
21
09
19
04
06
1e
17
32
27
2d
1c
15
22
20
2f
14
0c
0b
1f
06
1c
03
01
01
18
1a
27
2d
04
11
31
0d
00
08
1c
29
1b
16
12
23
10
11
2a
33
0d
08
06
09
29
02
13
29
1a
06
02
2a
16
0d
03
1d
0f
2d
02
17
03
01
2e
2e
24
3e
2f
1c
38
16
3b
25
2a
26
0e
1f
27
1d
12
1f
30
18
13
2f
2f
1c
38
16
3b
25
01
0f
28
2e
33
2e
22
0a
2b
39
0b
27
0f
07
24
14
1c
1c
26
2d
32
0f
34
06
06
3c
2b
39
0b
27
0f
07
01
03
29
35
30
0d
08
1e
0d
22
0e
17
16
0a
30
2a
0f
27
02
02
21
29
2c
08
13
2c
0f
22
09
04
1c
31
20
1f
1f
15
2f
23
30
28
39
31
12
2e
1c
1e
13
1a
1f
27
2e
24
22
2b
32
2d
1e
18
17
17
12
18
2f
1f
1d
2c
30
32
16
21
3c
2a
1a
12
05
0e
26
15
17
2f
1e
16
1c
15
31
20
19
18
3a
18
16
1e
00
1f
09
0e
1d
29
25
33
17
1f
21
2c
25
2a
26
3d
2c
32
2d
15
23
29
09
09
08
0b
1c
1c
11
29
2c
0c
1a
13
0b
03
26
2f
0c
0f
02
1e
36
0c
33
1f
2f
16
02
01
09
23
3c
11
01
14
28
15
0e
02
03
02
03
11
2f
2d
2f
33
2e
3b
2d
31
32
1d
28
1e
27
0b
30
2c
14
03
01
23
28
23
24
00
0d
28
14
00
28
12
1a
01
17
36
2a
2d
1a
25
04
0d
28
08
16
0d
2a
0b
0d
17
25
2c
2a
35
01
01
01
02
0f
2e
02
07
16
22
2c
08
01
14
0a
1e
2c
2f
1d
24
1e
2d
2a
14
2e
23
22
34
25
2e
1c
07
39
30
2c
2f
1d
24
1e
2e
2a
14
2d
22
30
3d
04
1a
12
32
1d
2d
1e
18
06
00
06
04
34
28
1d
12
32
09
1f
00
01
06
03
24
1e
18
25
23
05
24
01
07
34
14
29
21
07
2b
09
24
3c
0d
24
23
1a
11
27
1c
0f
01
2a
02
24
29
18
38
20
2c
3c
24
05
0b
0d
02
15
30
2e
1e
08
3a
3c
18
14
03
22
03
15
2b
1f
1e
0d
1f
07
32
02
28
1c
34
0b
1a
12
27
2f
1e
11
0f
2a
3a
33
0d
07
01
1d
1c
0f
27
04
03
1d
32
0b
05
25
19
32
21
24
0e
07
01
31
16
26
1f
1a
2e
02
29
1a
07
15
12
29
06
2d
2a
21
1d
38
08
2b
34
0f
2f
07
38
17
29
22
1e
29
06
01
02
15
22
02
07
08
1f
08
2a
0b
15
13
0a
11
2e
1d
1e
13
1b
1f
27
2e
24
22
2b
32
2d
23
13
20
13
12
18
30
21
1a
18
29
32
03
06
2b
2b
1d
15
15
31
1d
13
04
09
21
00
17
0e
05
0b
25
24
0c
0b
12
0f
02
32
03
00
05
22
23
1f
02
35
04
07
0f
10
2d
20
13
1a
1c
16
08
30
26
26
2f
2b
04
03
1e
26
16
22
16
30
19
27
1e
1c
00
09
05
17
27
0f
17
34
2f
2e
17
17
31
23
21
28
39
15
01
2c
36
25
01
1a
0e
31
03
22
25
21
25
0f
28
18
17
17
2a
1e
1b
1e
07
10
07
23
01
12
30
08
03
07
32
24
19
0b
05
38
09
3d
1b
2b
38
3c
2f
29
25
08
21
27
0c
08
0f
22
2b
20
11
3b
0e
26
0a
1a
1c
1d
09
04
12
1d
25
03
25
01
17
25
24
38
31
12
1c
1c
2b
0b
0c
18
23
2c
2c
21
0d
0a
02
18
27
2f
2c
2f
1c
22
2a
34
35
1a
17
10
21
09
19
04
06
1e
17
32
27
30
1d
15
22
20
30
14
0c
09
1e
06
1c
03
01
01
19
1a
27
2f
2d
2f
0b
01
00
04
23
1d
25
2d
28
1b
31
34
15
29
02
03
0e
2c
26
04
09
0b
36
09
10
2a
21
3a
2a
03
34
10
00
02
08
10
02
01
0a
1b
0a
2e
28
1f
17
22
1c
37
08
0d
2e
1b
2d
26
07
00
16
33
14
29
17
19
27
1a
17
15
1f
0e
21
00
3c
11
0c
2c
11
16
05
0c
1f
12
2f
07
2d
0e
0b
2e
16
1b
15
22
09
20
26
37
06
07
0e
00
1e
22
0b
21
05
20
04
05
26
0e
14
1c
1f
14
26
03
0d
0d
37
16
0a
20
01
0f
31
08
0c
23
1b
10
33
25
0b
2a
0d
06
1d
12
1b
1c
23
0b
32
14
28
00
01
35
2a
39
36
08
36
2e
04
04
20
1d
11
2e
1d
1e
1e
18
13
30
13
30
3b
2a
1a
12
04
0e
26
15
17
2f
1d
16
1c
15
35
24
22
25
3a
18
16
1e
13
10
09
12
16
16
2a
20
1d
19
26
33
2d
27
29
0b
26
23
35
22
1a
1a
0d
2b
20
05
00
00
20
13
2d
24
2c
04
24
0a
04
20
01
04
00
20
0a
37
23
05
11
26
02
11
09
08
00
0e
16
18
0d
14
11
25
27
24
22
36
24
20
22
00
18
19
2d
19
32
1d
14
02
19
17
2e
16
39
2b
02
08
1f
19
27
11
27
1c
0a
1a
0e
11
27
1b
2a
33
25
1c
0d
20
0b
07
06
0d
1e
13
11
18
01
15
19
1c
0b
16
0f
01
15
09
1c
03
0d
01
22
35
30
18
12
02
11
27
28
0b
28
29
14
03
01
21
2a
23
24
00
06
0d
3a
24
2b
3a
13
15
07
1b
10
28
16
22
08
0f
19
06
12
06
02
09
27
35
1a
17
1c
0b
1a
20
10
29
1d
2e
32
09
1e
00
02
33
11
2e
3c
04
03
00
01
06
01
20
25
11
1a
1e
20
01
06
01
37
37
23
0e
04
01
2a
10
14
0f
07
03
01
0d
05
01
03
04
37
37
23
0e
04
01
37
16
1f
31
0f
2f
07
38
14
29
22
1e
29
06
2d
2a
21
1d
05
35
19
20
13
21
19
27
02
27
02
06
06
02
01
03
26
07
19
0a
11
27
1b
0a
17
0f
1e
15
27
32
1b
25
01
25
1d
30
1a
2e
05
00
06
06
12
12
13
1b
2f
08
14
00
01
06
03
26
1e
17
03
00
01
06
01
20
25
11
1a
1e
20
01
06
01
09
12
31
1a
03
00
1f
0a
1c
33
07
02
01
0b
04
24
03
04
32
15
1c
0e
04
01
1a
1a
1a
1b
14
0d
13
03
01
07
1f
1a
0d
10
2b
19
24
38
20
20
20
20
20
20
20
20
20
20
20
20
20
20
1b
0e
1b
29
22
20
20
18
1b
20
38
2d
14
16
0b
10
1b
15
1b
19
3b
03
23
20
1d
1b
31
29
1a
29
1f
2d
05
16
2e
23
06
0c
0e
26
35
34
09
1d
24
2f
2b
31
1a
1e
1f
0a
19
12
11
14
28
03
04
31
0c
32
27
28
04
01
2f
07
1c
02
35
04
2a
29
07
05
23
13
01
0c
01
0b
01
25
20
12
19
34
05
0d
04
1c
02
03
14
2a
18
02
12
28
14
36
12
2a
1d
22
00
03
01
01
08
2b
0c
14
1c
28
37
20
1f
29
02
02
25
15
38
11
10
07
26
37
1f
08
20
25
12
34
01
01
06
08
11
21
35
02
0b
04
39
03
1e
34
0d
2a
1c
2e
22
2f
20
1f
21
12
2c
32
1d
02
1f
11
1f
2d
1e
10
20
29
2a
20
13
1a
0d
02
3b
38
25
20
20
20
20
20
20
20
20
20
20
20
20
20
20
20
1c
15
1b
1f
1b
1d
38
3a
23
20
1d
22
18
22
19
00
2c
20
1c
15
1b
1f
1b
1d
38
3a
23
20
35
33
20
30
06
02
25
38
2c
04
0c
18
05
15
2f
16
01
05
05
1e
1b
08
00
02
14
08
2c
04
1c
0e
09
29
00
21
01
09
06
09
2f
34
2b
15
05
15
22
2b
24
02
1f
00
2f
2a
06
22
14
01
34
32
29
25
10
17
1c
24
21
32
17
08
03
02
22
0f
36
07
03
0a
27
28
10
05
07
07
02
34
0a
3c
0b
18
22
0f
36
07
03
0a
0b
04
01
02
06
16
0a
07
32
1a
22
33
2e
1f
04
14
0f
2e
1b
06
17
2d
0f
2d
16
04
32
1a
22
33
2e
1f
34
01
1f
10
1c
01
2c
2b
02
0f
1e
0c
20
29
29
14
0a
1a
30
24
20
1a
1f
02
3b
2e
02
0f
1b
0e
1b
29
22
20
20
18
1b
20
38
2d
14
16
0b
10
1b
15
1b
19
3b
03
23
20
1d
1b
31
29
19
29
1d
2b
06
16
2e
20
30
0f
2a
2f
15
26
38
34
26
2c
2b
26
0c
25
1d
2f
15
1c
27
1a
0e
13
0c
1c
12
15
03
1d
2c
21
20
0f
2f
3b
23
29
13
1f
14
16
01
07
2d
13
15
26
0b
11
10
2b
25
2c
24
35
23
2c
04
2a
36
21
3a
2b
10
3a
31
2a
22
0a
08
0e
14
0f
01
13
34
07
20
19
1a
31
28
1b
18
1c
2b
18
02
1d
0d
23
15
1e
17
2d
2c
10
15
15
20
2a
31
29
3a
0b
05
38
24
17
36
36
30
23
2d
05
29
30
1c
11
18
28
1f
3d
0e
2e
33
0b
16
23
04
10
1e
1e
33
28
0a
38
30
0a
2a
07
1c
23
0f
28
1d
2e
11
1b
0a
16
24
1e
3b
34
1d
02
1f
12
1f
2d
1c
15
1b
1f
1b
1d
38
3a
23
20
1d
22
18
22
19
00
2c
20
1c
15
1b
1f
1b
1d
38
3a
23
20
12
1f
1f
20
07
0f
1a
26
06
09
1d
0f
37
23
08
30
32
27
2a
07
20
09
01
01
05
24
06
09
30
02
00
01
00
18
0f
24
2e
20
04
0a
0a
19
17
2f
26
14
2b
18
1a
11
02
01
04
16
13
08
03
06
19
07
18
18
05
01
04
3b
17
01
05
03
2f
21
29
21
23
01
28
20
02
01
02
22
2f
04
26
12
10
01
16
12
02
08
31
2d
06
0d
0b
02
1e
0e
08
01
16
1c
3b
1c
07
13
02
33
35
06
27
36
10
04
07
13
1f
2a
16
1c
02
00
00
00
25
15
16
03
1f
24
1d
35
01
00
14
12
2f
2b
00
01
18
11
20
13
16
07
26
2c
28
2f
01
00
11
3b
20
08
31
12
2c
2b
2d
33
22
0b
25
29
0b
10
1b
15
1b
19
3b
03
23
20
1d
1b
31
29
1a
29
1f
2d
05
16
2e
23
06
0c
0e
26
35
34
09
1d
24
2f
2b
31
1a
1e
1f
0a
19
12
11
14
28
03
2a
01
0c
32
27
25
00
09
28
04
12
27
0a
3a
29
22
0d
15
05
14
2f
2f
03
0d
02
16
25
19
13
21
10
31
1f
07
01
07
05
0e
1b
25
0c
0a
23
16
0e
0d
05
01
2b
33
38
15
16
03
2a
0d
06
1a
34
2d
27
1c
02
18
26
37
12
18
27
03
18
0f
25
09
28
1c
1b
36
01
06
0f
1a
06
0e
17
2d
09
0e
09
10
04
15
02
13
26
0f
2d
31
32
32
0e
10
2d
2a
00
03
01
08
0d
22
18
25
1f
01
0c
26
23
02
02
02
22
18
37
11
0e
26
2f
19
1c
08
26
00
12
34
01
01
06
08
37
29
0f
2e
30
0a
2a
07
16
23
0f
33
33
29
1e
2c
29
19
1d
15
1b
1d
1b
24
07
39
10
0c
35
33
20
30
06
02
25
38
2c
04
0c
18
05
15
2f
16
01
05
05
1e
1b
08
00
02
14
08
2c
04
06
21
19
15
00
01
02
0a
2c
04
1d
18
17
17
0d
0a
1d
24
0a
09
1a
00
2a
05
08
0f
13
08
21
11
35
04
1c
22
1b
16
23
04
19
08
1d
16
31
20
0c
24
31
2f
1c
20
1d
08
19
35
14
2a
39
30
0a
31
25
29
0c
3a
05
07
0d
2a
2d
09
20
2b
06
3a
0e
00
22
1d
08
3a
29
1d
21
36
07
38
0c
1f
10
36
1e
03
14
07
23
12
27
09
01
0d
1f
2f
0b
08
17
32
17
30
02
08
0c
20
32
3b
04
1d
03
18
36
07
10
07
11
04
01
04
26
13
1a
17
30
03
22
33
25
0f
36
15
0f
2e
06
04
19
1b
08
32
0f
11
27
1a
1a
29
1f
02
11
07
1f
31
0b
10
1b
15
05
0c
17
1d
2c
37
38
34
26
2c
2b
26
0c
25
1d
2f
15
1c
27
1a
0e
16
0b
1d
13
15
03
1e
24
1c
1e
16
33
10
31
24
21
21
16
16
03
19
21
12
03
1f
02
2a
26
09
1c
14
21
10
2e
35
21
24
03
1b
27
2a
13
0f
07
2c
14
36
2e
2b
1f
10
2e
11
23
1c
30
07
00
02
02
22
35
28
0b
0e
22
16
2a
1e
27
22
22
21
39
21
32
24
29
3c
3e
13
08
31
27
0a
03
2c
22
2d
04
17
27
34
2e
39
3a
1e
2d
25
26
2e
1f
31
31
2f
27
30
22
25
36
1d
23
27
16
2d
0d
1e
15
34
2c
19
2c
26
30
19
1b
1a
04
28
0f
24
2b
1b
25
1c
28
36
08
16
05
37
2e
18
36
36
30
24
27
05
29
32
21
06
01
04
18
07
1c
08
20
28
07
2d
00
00
03
04
39
02
20
04
04
03
0c
30
07
09
02
10
18
1b
07
23
2e
2e
2a
07
20
01
00
09
08
33
1f
3a
33
08
00
01
00
32
23
22
2f
20
3c
14
09
03
13
0f
1f
2b
18
32
1f
0e
02
03
02
01
37
2c
1a
34
15
02
13
0f
1f
2b
18
32
00
00
01
01
20
13
16
07
26
2c
28
2f
01
00
14
13
2f
2b
04
04
26
0d
0d
08
09
2c
11
1b
0c
2a
14
29
0b
15
00
2a
1c
27
36
33
04
18
32
1f
28
06
14
20
22
0c
09
2c
1a
26
06
0a
28
20
06
1e
08
2c
27
0d
27
02
13
06
01
01
05
22
06
09
33
08
00
01
00
32
23
22
2f
20
3c
14
09
03
0b
07
37
0d
38
03
12
0a
02
04
01
12
38
2c
07
2d
1b
21
0e
08
29
31
26
32
01
01
08
01
2b
3f
0d
31
00
16
28
20
2b
16
33
05
11
25
20
1e
20
20
20
20
1d
20
20
1e
1f
20
20
1e
28
27
1d
0f
20
1e
1d
25
1f
26
22
1e
3b
37
17
2b
2b
1d
0b
2c
24
16
1e
26
0b
1e
28
34
2b
15
12
1c
1d
30
24
1b
26
11
21
2e
14
06
01
01
2d
1f
25
01
1f
1a
0f
02
1d
0c
2f
1d
21
2b
32
15
26
0f
15
39
29
28
21
11
12
1d
04
0e
1f
20
10
20
23
2c
2e
01
31
20
30
15
11
02
03
04
14
37
0a
2a
20
1e
2a
22
02
06
24
29
15
3a
26
0d
36
30
0a
25
20
24
1e
1b
04
29
0c
0f
3d
2d
0a
26
06
05
0b
06
10
1a
0f
19
11
17
26
1f
0b
27
04
13
01
24
07
01
01
00
08
06
08
04
1f
13
05
13
02
0d
25
2f
0d
0f
31
23
24
2e
14
20
24
26
1c
28
0c
17
08
21
33
28
1d
14
14
21
27
26
1f
1f
1f
1b
1f
1f
20
20
20
1e
20
20
20
1e
1d
20
20
1e
25
19
1e
28
0a
30
2a
25
1e
26
0b
1a
28
36
22
32
2c
17
25
19
1e
28
0a
30
2a
25
1e
26
02
01
12
1f
35
1a
0e
10
05
09
0b
20
21
1b
2e
2e
01
04
0a
0c
1e
1b
27
39
08
0d
05
09
07
01
18
00
15
02
10
07
1c
12
04
13
14
39
1b
08
0c
29
1f
24
1c
01
1d
20
16
1e
1c
2e
1e
25
31
0c
23
01
09
15
1b
2d
19
2f
33
31
1d
37
26
15
1d
18
04
03
0a
0f
2e
28
03
07
22
2c
02
11
1d
37
26
15
1d
18
12
1f
25
2a
03
0c
3b
3a
0f
02
08
03
10
0b
00
11
07
06
03
1d
09
01
02
17
1f
2b
0f
02
08
03
10
0b
01
01
04
04
21
27
14
1b
0f
20
08
22
34
2c
09
0d
24
20
1a
1b
20
21
24
26
1f
1a
0f
20
28
28
1d
0f
20
1e
20
25
1f
26
22
1e
3b
37
17
2a
2b
1d
0b
2c
26
16
1e
26
0b
1e
28
33
2d
11
14
17
1f
2f
27
1c
15
08
19
2d
00
05
01
01
15
19
25
01
05
02
16
05
0b
13
13
10
03
01
17
0a
20
12
1a
01
03
01
21
1f
16
20
01
01
0b
12
0e
19
0d
0c
35
33
1b
15
04
2c
0b
29
2d
19
1a
18
06
0b
20
20
08
14
26
2d
13
12
19
3a
33
26
06
13
11
13
0f
26
12
2d
20
19
29
3a
28
26
34
27
0a
18
1c
22
25
27
2f
1b
2f
18
14
0f
1e
14
0f
29
2f
0d
1f
21
18
07
0f
1a
19
25
10
1f
13
0e
20
04
04
14
26
03
14
13
02
1a
17
0d
06
08
0c
15
09
07
01
00
04
0d
07
1d
14
15
0b
08
02
0f
26
33
18
10
24
20
26
2f
1f
1f
24
26
1c
25
0d
1c
25
19
1e
28
0a
30
2a
25
1e
26
0c
1a
28
35
22
33
2c
17
24
1a
1e
28
0a
2e
28
25
1e
26
01
01
11
17
36
19
1d
0c
19
12
18
21
37
22
08
0c
38
08
15
2e
20
11
2a
27
13
0f
19
12
3c
0e
12
33
22
19
20
31
1b
27
17
30
2c
33
2c
2a
05
02
26
39
1a
14
31
3b
33
39
32
0e
24
28
16
09
14
11
05
2c
10
2e
16
09
12
2e
0e
19
17
27
0e
10
03
02
2f
16
01
13
16
09
36
07
1f
12
13
1d
24
1b
07
0d
04
11
29
25
20
24
07
20
24
25
1a
06
21
3b
06
24
2c
1b
35
22
02
37
0d
20
38
30
24
25
13
2a
2c
25
12
24
25
3d
0b
0a
03
05
06
01
0b
1f
06
15
38
2b
02
0e
25
20
1f
2a
0a
0c
03
05
06
01
01
01
11
08
21
2e
14
1c
16
26
06
22
34
2c
1a
2a
2b
1d
0b
2e
26
16
1e
26
0b
1e
28
33
2c
14
12
1c
1d
30
26
1b
26
11
21
2e
14
06
01
01
2d
1f
25
01
1e
1a
0f
02
1c
0c
2f
1c
28
29
2e
10
25
0e
14
05
25
18
1f
10
33
1b
30
03
21
2f
1c
19
25
17
2f
01
1c
09
0f
1a
2d
22
23
01
0a
0b
0d
36
1d
22
3f
08
34
13
23
28
0b
33
2b
2d
05
25
01
01
10
08
28
18
24
17
19
2c
37
0d
07
0d
26
18
33
33
14
09
1e
23
1d
19
2b
05
1c
13
24
21
0f
10
03
0a
28
18
20
09
34
14
08
25
1e
2c
20
02
37
37
1f
19
16
33
0c
26
33
32
12
1b
1f
1c
20
13
2e
21
13
30
14
25
10
0d
0d
02
10
06
11
19
02
14
06
2c
28
21
11
0d
04
13
01
25
07
01
01
01
07
06
07
1d
14
13
0c
08
02
10
32
2c
1d
34
2d
10
24
1a
1e
28
02
33
27
24
2d
02
02
01
12
1f
35
1a
0e
10
05
07
0b
20
21
19
2d
2d
01
04
0b
0c
1e
1b
27
39
08
0d
05
07
06
02
12
00
15
05
14
07
08
07
23
0d
2c
1d
23
25
19
08
09
20
1a
0a
21
20
17
1e
2a
0a
1d
14
3c
09
19
17
16
38
09
22
12
29
12
34
24
1f
1a
0a
07
0c
0d
03
09
2b
29
13
05
29
2a
2c
26
2a
15
1f
20
1a
0b
22
16
16
07
28
0e
21
19
1b
1c
0a
04
03
03
19
19
08
1e
04
27
15
0a
34
28
18
26
1a
23
1c
0e
2c
37
29
16
10
20
09
1f
1d
03
04
13
02
2d
1a
09
3c
1d
26
38
28
2f
32
26
13
24
1c
1a
1d
29
21
09
0c
34
0d
20
30
08
03
18
04
00
10
07
06
0f
12
04
01
02
21
20
2a
12
02
08
0e
13
01
30
1e
11
06
17
2b
2b
1d
26
11
15
23
29
04
01
01
15
19
25
01
05
02
16
05
0c
13
13
10
04
01
1d
0f
20
12
1a
01
08
03
27
1c
17
1f
03
01
09
27
11
1d
18
04
17
2f
2f
1c
1f
11
1c
29
16
04
16
1c
18
31
13
25
1c
18
15
0a
17
32
2b
0a
36
27
18
26
2f
1e
11
25
1b
22
19
23
2d
08
34
2f
11
32
1d
1c
34
26
17
1c
2b
11
21
29
2c
2a
0d
23
1b
18
2d
1f
0d
23
30
0b
10
28
27
0e
1b
19
0f
18
2a
11
11
1a
1e
19
1e
22
24
0f
1b
30
1e
0b
3d
2c
31
2d
23
20
2e
28
2a
34
3a
34
1a
12
0f
25
18
16
2c
1a
3c
27
2c
02
1f
11
14
29
28
04
1b
22
17
0b
11
1f
19
25
10
1e
13
0e
20
04
07
0a
1f
2a
02
0c
28
1f
0b
28
08
0c
34
28
00
01
01
01
1b
11
35
1a
03
01
18
12
11
27
1a
17
10
1b
30
05
15
2e
20
16
27
17
0c
0a
06
23
23
0e
26
30
06
0c
27
2d
1d
21
03
11
19
18
29
01
38
31
1e
2c
1c
0c
23
1f
3a
36
37
11
04
27
15
0b
29
01
37
31
1e
2c
16
2d
26
34
26
20
1f
2a
0a
0c
03
05
06
01
0c
1e
05
17
1d
27
02
12
2c
07
16
32
1b
0a
0a
02
1f
2d
04
16
19
19
31
02
1d
22
2a
05
19
26
24
33
01
01
2a
04
34
01
1e
0c
20
24
15
1f
06
0a
11
1b
36
1c
19
34
14
10
2a
27
15
10
19
14
23
18
26
30
05
0c
27
2d
1d
21
03
11
19
18
2b
01
0f
16
21
13
10
0d
26
20
33
35
38
10
2e
10
18
0e
22
06
37
2f
1b
2c
25
24
23
31
06
14
14
09
34
20
03
01
08
01
1c
1d
03
01
20
20
20
20
20
20
20
20
20
20
20
20
20
20
38
32
25
17
1f
20
21
27
28
30
18
1b
31
25
34
2b
3c
23
30
37
1d
0e
27
30
1e
2f
07
00
13
08
16
07
2b
18
28
20
06
0e
1a
20
2e
0a
31
06
25
14
0d
14
2a
02
01
00
2e
26
31
0b
04
05
18
2c
03
04
02
01
2c
38
2a
3b
0a
18
1d
2e
1f
03
05
22
00
01
00
00
09
32
2f
20
1f
32
20
1b
01
00
0b
04
00
00
07
0a
01
28
09
1d
22
34
09
01
0c
04
05
01
2d
03
01
17
29
17
05
07
31
02
28
24
04
04
18
2c
03
37
09
06
2d
26
3b
22
28
21
2c
3f
09
19
10
15
2f
16
31
37
09
18
12
23
2e
3f
18
10
0c
12
10
17
21
3b
30
1c
1f
1a
24
2c
2d
26
26
13
0e
19
20
34
2f
1e
2d
1f
29
2c
12
1b
1d
1f
20
20
20
20
1f
20
20
20
20
20
20
20
20
20
03
07
27
2a
2f
31
1a
20
27
30
1d
2c
12
00
24
24
15
31
03
07
27
2a
2f
31
1a
20
27
30
30
02
18
3d
35
12
04
08
1a
1a
06
13
2a
21
37
29
2a
32
35
0f
38
25
08
30
1c
0f
1a
1a
06
38
03
06
25
1d
31
33
17
37
23
1e
2a
16
1e
18
0d
0f
0f
03
30
19
22
04
21
05
09
2e
1f
02
01
14
05
00
20
3d
0d
2b
38
10
02
19
0b
0d
03
18
09
01
0d
07
31
34
1a
25
02
04
36
28
23
23
0b
0d
03
18
09
01
05
02
0a
20
0c
32
23
11
29
18
1d
0c
21
25
2d
3c
38
1c
07
03
04
0c
01
21
20
27
29
18
1d
0c
21
25
1d
20
32
08
22
2a
20
17
13
08
0e
1a
20
34
02
0e
2c
20
34
25
20
20
24
2c
13
18
13
08
39
32
25
17
1f
20
21
27
28
30
18
1b
31
25
34
2b
3c
23
30
37
1d
0e
27
30
1e
2f
07
00
0f
0a
0f
06
2b
18
27
1f
13
09
09
1f
1b
39
1f
35
21
19
0f
20
08
02
0a
00
31
0b
25
21
3d
12
2f
24
2d
2a
0c
22
01
12
32
25
13
0f
34
31
20
01
33
03
37
35
1f
20
04
08
35
17
28
07
01
0b
04
22
16
37
23
04
26
1e
22
19
17
36
07
1b
08
04
20
1b
2e
1b
0c
2b
13
0c
08
02
27
32
09
01
31
29
2b
37
19
0b
2f
23
3c
30
0a
39
12
18
0b
1d
1f
1d
0c
37
35
20
28
2e
0f
21
24
22
2b
17
1e
30
1f
2e
3b
16
2a
35
32
0a
0f
16
30
05
20
3a
11
06
32
13
21
1c
04
17
34
17
1f
1c
26
3a
16
0a
0a
12
00
0d
2c
21
32
11
12
1a
24
2c
2d
29
26
14
03
07
27
2a
2f
31
1a
20
27
30
1d
2c
12
00
24
24
15
31
03
07
27
2a
2f
31
1a
20
27
30
39
2e
32
37
17
1f
22
0c
1c
36
19
36
14
09
02
00
00
02
04
31
31
1d
2f
38
0e
11
1c
36
18
1d
24
35
00
00
00
02
20
2f
24
39
0d
0e
23
22
0a
0c
08
01
26
18
00
24
05
08
07
0b
0d
10
22
11
05
07
15
0d
2f
2d
01
29
22
05
1f
05
02
01
19
31
1b
29
1f
1e
02
06
03
1a
05
0f
2b
20
0e
01
17
2a
31
23
0c
3a
0f
24
30
29
05
03
19
11
12
00
02
01
09
07
1f
23
04
27
35
08
09
06
0c
06
19
11
06
07
06
2c
11
27
04
01
32
23
1c
0b
04
02
31
0d
25
0b
05
03
02
01
33
13
20
27
39
24
0e
15
04
02
27
1e
0c
1b
2c
1c
20
15
1e
15
0b
17
1d
34
34
2b
3c
23
31
37
1d
0e
27
30
1e
2f
07
00
13
08
16
07
2b
18
28
20
06
0e
1a
20
2e
0a
30
06
25
14
0d
14
2a
02
01
00
2e
26
31
0b
16
0d
0a
2a
03
04
02
02
1d
03
1e
3a
25
34
26
2b
0e
22
03
0e
00
0b
01
00
0b
22
16
1e
25
2d
14
38
08
02
0c
0b
03
00
17
24
0b
16
06
0f
25
24
18
2c
15
16
19
0f
04
0c
2e
25
05
3b
29
09
02
24
2b
07
05
24
1c
28
12
16
07
24
35
32
02
3d
1f
17
24
23
0d
1e
34
20
26
29
00
21
09
06
17
04
0a
04
22
0d
36
23
04
2b
30
17
08
11
0a
01
04
02
12
06
1d
01
2a
1c
07
27
18
35
2e
14
04
02
2a
2e
03
37
21
39
3b
2c
35
1f
2e
12
2c
3f
09
1a
10
15
21
26
38
1d
34
17
1f
1d
28
3a
15
10
16
34
32
15
19
2d
03
07
27
26
2c
2c
14
1d
02
0b
30
02
18
3d
35
12
04
08
1a
1a
06
13
2a
21
37
29
2a
32
35
0f
38
25
08
30
1c
0f
1a
1a
15
2c
04
07
0d
34
0b
2e
18
1b
06
0d
08
05
28
1a
28
1c
19
0a
37
25
0e
33
01
07
0b
25
2d
3b
22
1b
1d
30
0f
08
10
04
01
0a
35
36
17
25
07
01
10
28
38
2e
24
3a
1b
15
15
10
10
32
06
10
23
28
3d
0a
19
05
10
11
04
03
2f
1e
01
20
00
32
29
1c
05
1a
1b
00
20
18
23
18
01
03
0a
0c
07
10
04
02
38
09
03
2d
33
15
07
29
05
02
29
00
1f
39
1b
14
0f
0b
1a
25
0c
00
0c
22
03
18
05
02
06
02
08
18
29
31
24
16
06
05
1d
0a
2a
34
2d
39
04
1c
29
19
05
13
38
19
0a
20
29
18
2a
25
0d
06
0a
09
17
0c
34
2b
3c
23
06
0e
0a
13
03
06
1f
35
21
19
0f
20
08
02
0a
00
31
0b
25
21
05
0e
00
2e
2d
2a
0c
23
1a
1d
2b
23
1f
13
33
36
0c
0f
33
25
2f
2e
15
06
08
03
3c
06
0d
2f
21
23
19
37
17
28
1d
2c
08
12
35
01
31
31
27
2a
20
2a
17
26
1f
16
21
14
2b
2f
28
32
1d
39
23
22
22
28
31
29
33
14
35
2d
24
17
3c
00
0a
26
2f
19
38
11
2a
23
27
05
30
0c
0c
28
03
11
25
30
19
29
1b
0a
2e
27
2f
36
32
08
3e
1f
33
01
38
25
1a
05
2b
2e
27
23
05
21
0a
09
33
00
28
0f
19
04
30
16
17
09
01
1a
0a
0e
27
20
1c
1d
15
2a
1d
1a
2b
38
14
18
24
22
2b
19
1d
30
1f
2d
2a
27
08
04
02
01
3c
22
28
24
35
24
0a
26
03
14
23
06
09
2f
38
2b
08
08
1c
36
0f
14
25
0f
03
00
00
0b
04
31
32
24
1e
03
37
0c
02
00
2c
33
1e
37
01
00
00
02
17
1f
2d
13
20
33
04
00
0c
05
16
2a
1f
08
00
00
27
0b
1e
03
04
34
17
2b
04
00
0c
05
16
2a
05
07
00
00
33
13
20
27
38
24
0e
15
04
02
31
0c
25
0b
0f
03
00
03
0f
34
00
1b
1e
0a
20
1f
10
07
1e
17
23
04
02
1c
1a
22
0f
1e
23
20
0d
15
38
29
2c
39
23
11
22
0b
24
28
0b
2b
1f
23
09
02
02
04
04
38
02
1f
2f
38
0e
11
1c
36
2c
33
1e
37
01
00
00
02
17
1f
2d
13
20
33
04
01
2b
0b
26
10
2c
09
00
00
19
06
1e
03
1e
09
3a
01
05
01
11
06
11
2a
1c
0b
2f
0b
0b
26
1e
1f
35
10
0f
0a
3e
31
34
10
25
2c
20
23
20
20
20
21
25
20
20
22
21
20
22
23
39
13
35
2d
1f
24
25
28
1d
26
1f
1d
23
1d
1b
1d
21
2c
2f
35
3b
2e
1b
26
14
1b
32
2d
0b
10
26
31
22
2f
25
25
2d
33
20
14
02
00
0e
05
09
12
03
04
22
03
15
19
08
1e
05
0d
01
12
0b
0b
01
11
00
00
21
08
1d
39
15
2d
31
31
02
04
1f
07
02
00
26
19
12
0c
11
24
24
1e
30
29
30
1b
2d
06
15
18
05
14
22
39
0c
1c
24
1a
2d
2a
0a
19
21
24
0b
20
2b
29
02
1c
1a
2c
35
22
26
25
30
1d
10
0a
0c
02
33
2a
23
1f
25
1f
27
18
09
11
0e
32
25
05
1c
26
1e
2f
25
17
1b
15
15
12
07
01
01
03
05
08
08
0a
06
05
1a
1c
18
0f
16
0e
02
00
06
0b
08
0e
06
08
1f
1d
18
0f
1b
1f
20
20
21
21
22
21
21
23
20
20
20
23
25
20
22
23
39
01
34
32
28
25
20
1d
19
24
13
11
33
2a
07
07
04
09
39
01
34
32
28
25
20
1d
19
24
03
02
3a
22
02
02
0b
08
0f
04
0e
21
3b
1d
01
0c
09
09
0e
22
2e
1a
05
1a
26
14
0f
04
31
18
2d
07
21
36
3b
1c
18
1b
31
09
23
2d
20
29
04
1b
10
0b
14
1c
11
1b
0b
01
07
10
30
11
15
1c
14
28
38
36
31
2c
35
2b
01
06
21
15
23
1d
11
1f
06
0f
1a
00
10
20
19
23
1e
1c
0c
25
21
15
23
1d
11
1f
2f
2e
3a
2d
38
26
19
21
22
29
06
02
20
1b
2d
1e
26
23
05
18
37
31
1d
25
33
21
22
29
06
02
20
1b
1e
3b
20
04
18
0f
1a
1b
04
00
06
0a
08
0e
09
13
11
17
06
09
20
1b
18
0f
1b
1a
04
00
38
10
35
2d
1f
23
20
28
1d
26
1f
1d
23
1d
1b
1c
21
2c
2f
36
37
2e
19
25
14
1b
31
2d
20
24
2d
37
21
2f
21
28
25
1a
20
12
13
1d
0a
1a
0a
16
1b
1b
29
1e
21
29
0c
2b
35
27
22
23
36
15
20
33
1f
14
06
0d
18
31
09
15
27
13
13
23
36
25
32
16
32
2c
0f
07
1a
0a
39
0b
0c
0b
29
2c
2f
26
10
1b
20
10
07
11
23
13
2f
1b
18
1d
37
23
07
06
18
08
09
17
29
10
13
16
26
2d
28
1f
08
02
02
17
26
25
17
11
18
19
25
19
1a
26
14
06
0d
03
12
12
2b
24
14
2b
1b
18
22
22
1a
14
0b
09
03
01
21
2c
22
1e
1d
28
25
1d
0b
10
14
2d
13
01
1b
26
23
21
1f
21
1a
16
17
11
07
01
01
03
05
08
11
13
06
05
1b
1b
18
0f
16
0d
02
00
39
01
34
32
28
25
20
1d
1b
25
14
11
32
2a
08
07
04
09
39
02
34
32
28
26
24
1d
1d
26
05
02
06
01
01
04
25
07
19
1a
0a
1c
05
19
01
00
01
00
01
1e
1a
07
23
08
3a
19
19
1a
11
06
24
32
3b
30
02
00
16
25
18
38
2d
0d
27
2e
26
1f
20
24
2e
05
13
13
12
01
34
19
00
17
2e
27
34
28
21
17
1c
1f
24
25
2e
1c
1b
0a
01
01
17
1c
06
00
06
00
1b
24
13
26
12
23
37
22
16
04
2f
20
1c
2b
1e
15
23
1c
3a
19
22
0c
2f
27
15
2f
37
3e
1e
01
19
10
07
04
29
3c
2e
28
09
20
2f
27
0a
27
2c
27
28
12
2e
20
1f
28
07
06
2e
2b
28
20
1f
2d
0d
16
34
37
24
18
33
23
20
2b
06
05
2e
2b
14
3a
18
03
06
05
1a
1b
01
00
04
0a
08
0e
1a
1c
20
2d
2e
33
37
2e
19
24
13
1b
31
2d
0b
0f
26
31
22
30
21
25
2d
33
20
14
02
00
10
06
09
12
03
04
20
03
15
1b
08
1e
05
10
01
23
13
11
01
14
00
00
33
03
1a
37
05
15
15
1f
0b
10
16
33
25
19
34
09
02
2b
28
27
28
1f
2c
24
29
1d
00
22
14
25
31
23
06
12
22
15
21
17
1a
2e
24
19
29
23
0e
1e
18
3b
15
12
2a
13
10
0a
13
0c
19
0b
05
24
1f
0c
25
1f
13
1f
1f
10
18
0a
01
15
24
14
21
02
1c
1d
2d
2b
1b
07
2d
05
2f
1d
08
04
17
38
10
1c
22
1d
30
29
0c
1e
20
1e
0b
16
21
23
05
18
1c
26
37
2b
28
29
2d
1d
0f
09
0c
02
36
25
20
1c
25
20
29
1d
09
11
0e
31
25
05
1c
27
26
23
1f
21
1a
15
17
11
07
01
02
0d
1c
19
06
15
38
02
34
38
28
2e
20
1d
0d
3d
03
03
3a
22
02
02
0b
08
0f
04
0f
21
3b
20
01
0d
0a
0b
0d
22
2e
1a
05
1a
25
14
10
06
27
0e
0d
01
2a
3b
32
16
0c
04
29
22
18
0e
1f
28
37
38
27
07
28
26
11
25
08
01
11
07
22
10
04
0f
28
26
0a
29
05
1a
04
13
12
03
1d
08
00
09
34
25
2d
15
2e
1c
1f
28
22
12
03
14
2d
1d
13
1e
0e
08
0e
09
21
24
16
00
17
23
03
17
3b
20
06
01
30
10
19
20
17
09
04
11
2b
1d
03
0c
0d
06
10
17
28
1f
24
0f
12
2f
1d
2c
11
16
07
0b
23
00
15
1e
10
11
1f
1c
0a
0d
0b
10
23
1d
12
17
2c
2b
38
2a
35
26
16
19
08
1a
06
02
1d
16
2c
1e
26
23
03
02
37
32
1c
25
2f
22
22
29
07
02
29
24
1b
2d
26
2e
1a
1d
20
2d
2d
33
15
0d
00
00
0b
1a
0a
16
1b
1c
29
1e
21
28
0c
2b
35
27
23
1d
18
07
1e
32
1f
14
12
10
1c
34
30
2e
27
35
0e
28
2e
29
1b
0e
30
22
13
1c
1a
1c
24
18
1e
0e
30
3a
0b
04
03
33
13
22
1e
0b
20
11
16
0d
19
33
0b
36
11
1e
07
00
14
10
1b
13
12
0d
12
14
1a
04
13
2c
11
19
19
19
1a
1c
14
0f
04
24
0a
01
12
0c
04
16
24
11
22
0e
13
24
07
13
02
04
0a
02
04
19
26
10
1b
11
1d
16
09
17
02
04
03
01
07
11
27
1f
0e
23
16
21
0f
19
27
1d
07
01
05
15
2c
1f
13
15
15
0f
10
1b
1a
24
14
06
10
03
18
0b
2c
23
14
2a
1b
18
22
21
1a
14
0b
0c
07
01
09
0a
34
37
25
1f
27
19
1d
2a
17
34
28
09
02
03
2a
19
02
0b
2d
1e
19
1b
19
2a
04
07
0c
22
02
17
01
1e
1a
10
35
03
29
13
33
34
1f
32
06
00
20
01
02
00
1b
20
0a
1d
1d
11
2d
1c
09
1f
34
2c
1a
34
17
18
2e
06
15
16
09
0c
1f
38
2d
1c
09
1f
33
2c
0b
28
34
37
23
18
33
23
21
2a
06
05
2e
2b
25
21
1f
2c
2a
10
27
2f
31
32
33
1e
0a
32
32
13
1c
21
13
0f
17
03
39
01
2f
2e
04
0b
0e
08
27
31
05
02
06
07
02
03
27
06
17
15
08
17
0a
02
00
00
01
00
01
18
19
08
23
08
39
18
1b
1b
1e
2e
06
00
20
01
02
00
1b
20
0a
1d
1d
11
2e
19
0b
26
21
31
19
32
14
16
2a
06
15
18
0e
04
1e
37
30
19
09
1f
34
2c
0c
1c
28
25
24
1c
30
24
22
0a
06
02
1b
14
25
1f
27
26
20
20
20
20
20
20
20
20
20
1f
20
20
20
1f
1f
1c
1c
18
20
20
20
20
1e
1e
1f
21
00
03
09
0d
15
12
15
02
27
1a
1c
1e
11
2c
0e
23
0b
1a
10
17
08
0b
22
12
12
05
39
14
2c
2f
1d
2a
37
0b
17
11
11
23
01
02
13
07
26
17
2b
06
06
23
29
2c
08
2a
02
16
00
05
14
22
16
15
15
34
2e
13
2b
27
01
19
37
00
00
1e
1a
00
0d
27
1f
3c
15
25
04
09
0b
00
05
16
04
00
05
08
06
00
21
13
26
26
32
3d
02
05
0f
17
21
1a
03
00
0d
22
1d
1f
04
15
15
15
16
15
14
19
17
1f
0e
25
20
1f
3b
3d
0b
08
01
04
1b
08
35
33
36
27
23
1e
1e
2f
1c
30
2e
2b
19
36
1b
18
24
2b
17
10
10
18
2b
39
3c
07
22
3a
18
1c
0d
1f
16
10
36
2a
22
28
20
20
20
20
20
20
20
20
20
1f
20
20
20
1f
13
08
1c
16
15
02
2b
22
1c
1e
11
2c
0e
25
11
1d
13
10
13
08
1c
16
15
02
2b
22
1c
1e
1f
23
36
26
0b
1f
24
2d
2f
2b
0f
2b
26
23
1c
06
28
2e
1c
20
18
02
03
0d
27
36
2f
2b
32
07
33
0c
14
15
0c
25
24
1a
01
18
23
1c
29
0e
1b
17
29
27
1d
05
29
21
12
04
1b
00
1d
0e
3d
1c
21
19
03
02
2f
26
1f
00
0e
0e
22
1c
2b
1f
0c
1c
02
00
00
1a
01
06
2c
1e
21
00
13
1a
22
1c
2b
1f
0c
1c
28
19
00
01
02
11
0f
00
00
00
14
0c
0c
18
01
03
17
1e
22
1f
04
04
01
15
1d
2c
00
00
14
0c
0c
18
00
0e
06
0f
14
0d
24
2e
34
33
3d
06
23
36
25
1c
05
06
22
1c
20
1c
13
10
36
2b
32
33
1f
1c
1c
18
20
20
20
20
1e
1e
1f
21
00
03
09
0d
15
12
15
02
27
1a
1c
1e
11
2c
0e
23
0c
1b
0f
16
08
0b
22
12
27
17
3a
14
32
23
1a
27
1f
1c
17
10
25
24
12
0b
1f
26
2d
24
31
1d
22
24
19
1d
18
16
02
20
13
12
31
20
2c
1e
1d
2a
1e
0f
0b
1f
12
22
10
00
2a
06
12
21
11
34
2c
30
27
07
22
21
15
06
17
13
2a
0c
16
08
1f
32
03
01
13
1a
06
25
00
0d
14
0a
16
23
10
00
07
2c
00
0e
27
06
0e
14
0f
00
2b
1d
24
1e
23
20
18
2d
03
26
02
01
00
07
0d
1c
12
05
2a
27
14
33
22
0a
10
1a
19
06
13
1d
00
0f
11
20
1d
15
04
04
06
08
0f
16
14
1b
0a
0a
24
2a
1e
14
1c
35
1f
2c
31
27
05
05
1b
1c
36
28
15
10
10
19
2b
31
13
08
1c
16
15
02
2b
22
1c
1e
11
2c
0e
25
11
1d
13
10
13
08
1c
16
15
01
2b
22
1c
1e
1d
26
38
30
0b
20
11
2d
1b
18
3b
07
26
20
1c
2a
30
27
2d
19
1c
0c
03
16
15
37
1b
18
0b
02
0c
0f
13
0f
33
2d
35
22
01
00
00
0e
04
00
20
00
0d
1f
1d
0c
04
0a
0a
2f
2c
19
02
13
04
14
20
2f
20
1f
22
20
0b
34
26
2b
0d
33
1c
24
28
15
02
00
1d
1b
0d
15
27
15
00
2d
15
18
31
26
14
1a
1a
00
01
00
00
00
38
23
2b
01
0f
1c
37
21
20
28
23
03
18
2f
08
00
07
2d
23
34
21
0e
0f
1c
22
19
0d
09
17
37
16
06
00
00
08
05
16
02
14
36
26
13
25
22
04
0b
20
1e
1d
2e
02
00
02
01
16
02
2b
17
09
12
18
18
24
2d
28
26
3b
0b
25
36
09
0d
15
12
15
02
27
1a
1c
1e
11
2c
0e
23
0b
1a
10
17
08
0b
22
12
12
05
39
14
2c
2f
1d
2a
37
0b
17
11
11
23
01
02
13
07
26
17
2b
06
07
24
29
2c
08
2a
06
21
01
05
07
20
1f
29
16
27
2a
16
31
27
01
17
0e
00
00
1b
02
02
18
2a
0b
06
2e
23
29
0f
0f
00
0e
03
1b
06
1f
21
16
16
21
1f
0e
14
00
2b
14
24
0e
2d
1f
20
0c
28
2a
1a
11
25
0d
2b
36
28
24
27
19
2a
00
1d
09
0f
1a
0e
04
16
01
0e
2e
19
06
02
0f
12
25
24
17
19
21
28
29
17
25
00
30
0f
22
29
2a
30
1d
20
07
33
14
2c
20
2f
34
27
1c
13
01
10
15
13
0b
16
17
14
03
08
1d
2f
16
1d
01
16
22
1f
3b
3b
0c
07
15
18
17
1b
09
0a
24
2b
1e
14
1c
36
22
36
12
1e
12
0f
13
08
1c
16
13
02
2b
21
00
01
1f
23
36
26
0b
1f
24
2d
2f
2c
0f
2b
26
23
1c
06
28
2e
1c
20
18
02
03
0d
27
36
2f
2c
2e
06
31
04
15
15
0e
25
38
2e
26
29
1a
24
1d
02
16
1a
19
2f
19
00
25
1d
21
03
15
00
33
21
11
21
17
00
1e
1b
04
33
0c
28
0e
39
06
07
1c
13
1a
26
02
00
00
2c
00
27
2e
1e
18
1d
22
34
0b
00
17
21
29
2a
1d
2b
22
34
04
29
1c
21
24
22
14
05
1b
25
05
20
0c
1e
16
28
21
32
2b
2e
0c
1f
1b
15
08
00
09
0e
16
0f
17
00
08
12
0e
0a
24
33
00
05
1f
1b
1a
0a
22
2d
2f
35
2b
1c
06
12
16
13
07
09
1f
17
38
2e
0b
24
14
0b
05
0b
03
06
18
1e
25
03
03
02
00
11
3d
36
00
00
2a
37
15
1f
09
21
10
18
09
0d
15
12
13
05
0d
33
33
37
1a
27
1f
1c
17
10
25
24
12
0b
1f
26
2d
24
31
1d
21
22
19
1d
18
16
12
28
12
11
32
22
24
1f
21
15
20
12
0d
1a
12
2a
0d
13
28
1d
28
33
28
25
1b
26
20
15
15
24
1b
18
2f
16
2a
2d
26
03
24
11
1e
14
18
33
27
1a
02
2c
24
26
36
02
18
10
21
13
1b
2c
20
17
29
34
29
28
25
1a
2d
2a
1b
15
1a
35
23
1d
22
23
22
31
25
19
36
2a
2b
10
16
17
29
21
30
14
1c
01
1b
1f
0e
0c
12
02
1f
17
2c
1b
11
18
29
1c
30
21
29
22
19
38
17
22
1e
16
37
24
0d
00
1e
21
27
2c
27
1e
14
21
33
16
1f
06
00
0a
29
16
12
05
2a
28
14
33
22
0a
12
21
22
13
04
0a
17
1f
0e
26
00
00
25
36
16
04
19
1c
11
08
0b
1f
25
2e
1a
18
0e
2c
22
28
1b
24
2e
25
2d
19
1c
0c
07
21
15
37
11
1d
0c
05
0c
15
1d
1d
2c
2d
39
24
01
00
00
00
08
02
21
0f
1b
25
21
16
04
09
06
2f
32
1d
0d
00
06
19
08
02
21
0f
1b
25
2e
23
01
01
1f
1e
1d
2e
02
00
02
01
16
02
14
38
25
14
18
03
04
07
1d
1b
28
2a
06
02
04
12
01
05
09
12
02
04
08
06
32
21
32
25
01
06
2d
3f
2d
2d
0c
29
1d
2e
11
2c
19
14
37
0b
0c
1e
0e
21
1b
01
2e
0c
09
0e
03
16
15
37
1d
15
0b
04
0c
15
1e
1d
2c
2d
39
24
01
00
00
00
08
16
03
01
04
2e
0e
14
04
08
10
39
31
1d
06
00
07
12
08
02
30
0e
1c
25
2a
38
01
01
19
27
32
2c
25
22
02
01
06
06
33
03
1a
08
20
20
20
20
20
1f
20
20
20
20
20
20
1f
20
09
15
1d
24
20
1f
20
1f
22
15
19
19
28
28
22
2c
22
30
19
26
1b
20
22
15
2a
14
2d
32
33
2e
26
20
21
29
22
2e
14
31
29
1d
1b
08
18
04
19
1a
22
1e
1c
1e
1b
15
07
1b
2c
1d
30
31
22
38
15
27
29
2f
24
1e
30
35
34
36
0e
03
19
0f
0f
27
38
0a
2c
11
2a
08
23
07
26
18
07
24
13
08
02
13
3a
06
07
18
21
0d
23
1b
20
1d
2a
09
0a
32
09
12
20
11
22
21
0d
29
26
2f
10
04
2e
1f
31
2e
19
1f
23
38
20
04
2e
0a
20
1a
2e
2b
2f
2c
06
1d
13
19
09
1d
1e
2c
0f
34
0f
0b
36
2c
1b
0c
1e
10
06
25
25
1f
30
3e
1d
22
18
25
35
28
29
17
1f
14
26
1a
30
35
2d
33
1d
25
10
0f
20
20
20
20
1f
20
20
20
20
20
20
1f
20
20
1f
20
1b
24
1d
1e
1a
1e
1b
1a
22
16
2a
17
2d
31
0d
09
0e
19
1b
24
1d
1e
1a
1e
1b
1a
22
16
29
2f
31
23
24
0e
06
1d
18
0c
11
1e
19
11
14
15
2a
36
22
1c
22
34
13
1e
21
29
18
0c
11
18
17
0f
33
38
18
0c
29
2a
21
11
02
02
0f
11
2c
33
07
3a
28
2a
32
24
01
05
17
0a
20
0a
17
04
1a
30
18
1d
0c
04
1e
28
32
0e
34
20
25
24
05
05
35
05
17
27
04
11
30
0d
09
17
27
19
34
20
25
24
05
05
2b
26
2b
2a
24
2e
0e
2e
18
03
04
06
12
08
17
15
0b
12
04
03
1c
0f
1b
0f
00
0d
18
03
04
06
12
08
10
24
1d
1e
17
24
1e
1f
30
22
1f
14
26
1a
04
00
1f
23
2e
32
1f
21
18
25
10
0e
30
22
09
15
1d
24
20
20
20
1f
22
15
19
19
28
28
22
2c
22
30
19
25
1b
20
22
15
2a
14
2d
32
36
01
2c
26
21
28
23
2f
08
1a
1f
19
09
10
0d
12
0c
0b
22
25
32
08
02
07
09
19
10
17
20
0f
29
22
11
12
19
14
30
0e
07
17
2a
06
01
09
24
14
14
05
1e
20
1b
0e
25
36
0e
0b
39
20
2a
1f
28
2c
30
2a
31
24
0b
39
39
24
20
23
06
1f
25
34
1a
28
1c
2f
11
14
29
31
23
1b
3a
25
2a
3b
1d
12
34
32
34
3e
07
1c
2f
06
17
2c
1c
1f
2d
22
0f
10
05
0a
0a
0a
25
23
2e
33
23
07
03
11
0a
07
04
0c
24
2d
26
22
27
01
26
0a
03
09
29
1f
21
22
22
26
2e
0d
09
0f
1f
17
1c
1d
33
1f
16
09
1e
10
07
29
1e
24
31
07
0f
10
18
25
35
28
29
17
1b
24
1d
1e
1a
1e
1b
1a
22
16
2a
17
2d
31
0d
09
0e
19
1b
24
1d
1e
1a
1f
1b
1a
21
16
2f
31
06
10
29
13
1a
21
27
2a
28
2f
19
22
2f
3a
3a
29
03
17
25
3a
23
1d
38
30
27
2a
03
27
1f
2d
06
2b
03
16
22
16
07
0a
1b
09
1c
0e
17
22
0e
05
20
0d
2e
08
00
00
07
05
02
01
04
06
19
21
28
28
33
1a
24
2c
0e
1a
1e
1d
07
09
12
28
34
21
1f
32
28
1b
2b
28
21
2f
02
0e
05
2d
05
03
28
0d
20
23
21
09
01
00
1d
1c
06
0a
13
00
03
06
00
00
04
04
35
01
08
05
03
01
0a
25
06
0a
12
10
27
14
1a
1f
27
28
28
0c
0d
1c
36
27
11
23
23
2d
32
24
21
33
20
11
00
0d
28
0d
34
0b
36
27
0a
16
20
26
2d
3e
1d
20
36
35
1a
11
26
1a
22
2c
22
30
19
25
1b
20
22
16
2a
14
2d
32
33
2e
26
20
21
28
22
2e
14
31
29
1d
1b
08
18
04
19
1a
22
1d
1c
1e
1b
15
07
1b
2b
1d
28
28
33
21
15
27
29
2c
1b
35
27
28
31
2d
04
04
34
10
09
17
2b
13
02
10
05
02
21
09
25
1a
1e
19
23
3a
06
14
1a
1e
03
02
0b
0b
27
02
1c
08
03
11
20
1f
20
26
24
1e
05
3d
1d
29
0e
1d
18
10
38
20
28
15
1d
11
24
06
1c
2d
1a
0f
21
2f
22
0a
25
0f
02
21
12
11
2c
13
10
1f
07
0b
03
0c
0f
17
19
20
35
09
18
04
03
11
03
01
1a
29
07
27
0d
10
1d
1f
03
1f
08
10
1d
00
2e
08
32
0c
1a
1c
23
38
29
21
1a
05
20
12
2f
0a
2f
2c
06
1d
13
19
2c
0d
0b
12
1f
17
1c
1d
37
1f
16
0a
16
1a
0d
10
13
20
1b
24
1e
1e
21
1b
18
1b
38
09
29
2f
31
23
24
0e
06
1d
18
0c
11
1e
19
11
14
15
2a
36
22
1c
22
34
13
1b
21
29
17
0c
22
27
34
0d
29
2d
13
05
18
0c
1c
03
17
04
01
32
23
02
1d
17
25
25
31
1a
03
01
1b
0d
01
1b
04
02
04
20
0c
07
12
01
12
0f
2b
2a
2a
32
3a
30
1c
07
0c
1f
21
34
0c
0f
15
1a
22
33
38
2d
05
04
1a
2d
38
0b
24
10
34
18
01
19
35
1a
09
19
04
09
2f
1a
28
05
10
05
0a
1f
11
1a
2c
36
28
04
06
01
20
29
20
0f
10
08
0a
08
05
01
09
08
00
07
10
07
09
03
1f
23
06
2a
05
05
24
24
05
01
18
1b
2d
19
2b
2b
25
2e
17
05
04
06
0d
09
1e
14
0b
12
10
2e
22
04
1f
08
00
09
1d
03
24
17
28
19
21
32
26
25
22
2c
22
30
14
31
1a
26
21
0e
0d
12
0c
0b
22
25
32
08
02
07
09
19
10
17
20
1a
1e
0f
11
12
19
14
0a
07
06
12
17
0a
15
19
11
16
0f
03
06
04
07
05
10
01
04
06
17
0a
0e
1e
11
04
0a
04
08
03
0b
01
0a
15
0e
05
27
23
05
2a
0a
03
18
27
14
3b
2b
1f
37
14
15
0d
05
30
2a
2d
33
29
09
0d
18
1f
02
0a
17
12
1a
1a
2e
36
06
14
25
1f
1d
1a
29
02
1f
0f
21
0e
08
04
32
0f
1f
14
1d
10
07
02
22
01
28
1b
39
0c
01
1c
04
25
21
02
1a
12
0b
05
04
0c
06
0c
01
04
07
32
1f
02
16
1a
23
0f
01
05
12
23
0c
05
06
0e
06
26
23
25
36
32
23
07
03
11
0a
07
04
0c
0d
10
20
2e
21
31
20
1a
2e
2d
1d
0d
28
36
37
1f
16
0b
2b
20
25
15
2f
0a
27
2a
17
1f
14
09
1d
1f
10
0f
03
17
25
39
1b
35
2a
29
18
22
38
27
30
29
18
19
34
17
22
20
33
09
06
07
24
0e
0b
25
0b
04
23
0c
3a
06
00
00
04
0f
08
1d
23
07
24
0e
0b
25
0b
04
1f
18
3c
26
20
11
00
0d
28
0d
34
0b
36
27
11
23
23
2d
1d
1c
05
21
0d
28
03
0b
12
02
1e
20
1c
39
03
19
11
25
20
27
0d
0e
0f
09
25
0e
05
17
19
29
02
1c
3a
02
1a
21
2a
29
14
1e
15
26
23
11
0b
24
03
1c
33
0c
23
1e
38
30
27
2a
38
27
30
29
18
1a
34
17
22
20
33
09
06
07
03
32
12
22
2e
37
30
23
35
02
00
00
04
0f
27
04
17
17
1e
28
06
22
0a
04
05
09
00
06
23
0a
0a
2e
2e
22
34
09
0f
07
01
0c
2f
3b
20
20
20
20
20
20
20
20
20
20
20
20
20
20
1c
18
18
18
20
20
20
1f
1c
17
14
1d
05
0c
0e
19
10
2a
09
08
00
0e
1c
17
0f
26
06
07
39
36
37
32
0a
16
0a
25
18
12
27
04
21
0d
03
1a
1f
1c
03
0d
2c
1f
2f
34
0c
0d
1e
18
07
1f
25
12
0f
1a
26
12
27
33
28
1a
28
32
14
11
2a
37
14
21
22
19
12
18
20
34
0e
2d
19
07
24
02
14
2e
31
1c
19
12
1e
3e
32
0a
0e
3d
15
37
22
29
32
0c
02
00
32
07
26
0c
2e
05
01
0c
1c
09
05
27
02
07
19
12
04
0f
1b
35
1f
13
16
0d
05
33
13
19
33
08
07
00
0b
1c
10
02
2b
28
28
20
16
1b
03
14
23
16
21
26
06
25
24
25
11
31
33
2d
31
1e
0b
0f
17
0d
2f
1f
26
34
12
2e
34
2d
28
21
21
1e
20
20
20
20
20
20
20
20
20
20
20
20
20
20
21
24
17
10
09
08
07
16
1c
17
0f
27
06
07
00
03
0f
2f
21
24
17
10
09
08
07
16
1c
17
27
0c
17
00
02
02
23
2c
27
20
11
13
2f
16
03
14
28
2c
25
06
14
00
24
35
02
20
27
20
36
21
2a
23
02
03
0d
32
1b
1e
05
07
01
0c
29
16
3a
31
16
2c
1c
00
24
10
11
03
18
0f
1f
08
2f
38
16
12
07
29
01
2b
01
07
0a
1b
1d
1e
14
16
02
0e
01
00
05
3a
36
1a
04
1c
0e
34
18
27
1d
1e
14
16
02
0e
14
12
0f
37
0a
11
10
2d
17
10
1b
17
37
1c
09
09
0f
10
06
12
02
00
24
0a
1e
35
17
10
1b
17
37
1c
06
00
16
10
37
2e
17
33
23
18
15
11
2d
1f
22
3d
32
08
0b
0b
1f
26
33
2d
29
29
23
18
1c
18
18
18
20
20
20
1f
1c
17
14
1d
05
0c
0e
19
10
2a
09
08
00
0e
1c
17
0f
26
06
07
3b
3a
36
30
0a
16
0a
25
20
14
24
04
1e
2f
07
1e
2f
23
03
0f
22
1e
2f
2e
2f
25
2e
1c
2c
1f
2a
27
1c
24
2c
2f
1e
1e
32
27
25
04
14
1c
1f
2c
23
3a
0b
22
08
01
31
1c
14
0f
35
21
26
0f
10
03
18
29
24
10
33
0f
13
1d
27
0f
25
07
11
14
01
2a
1a
0e
0c
2e
07
0b
31
08
29
37
23
0b
2b
0d
39
28
29
3a
30
38
2f
1e
0e
05
22
1b
0a
11
10
07
25
24
34
14
1c
2b
10
10
24
11
27
2c
10
08
0b
27
0c
09
18
24
08
0d
30
0c
06
05
1a
16
23
17
02
00
21
08
35
28
08
28
11
2b
1e
18
12
14
21
16
2d
3d
32
0d
20
24
28
26
33
2d
32
1f
0a
11
21
24
17
10
09
08
07
16
1c
17
0f
27
06
07
00
03
0f
2f
21
24
17
10
09
08
07
16
1c
17
28
0e
1f
00
02
02
2f
2c
1f
1e
01
04
14
12
18
1e
1d
2a
0b
17
1d
05
25
33
1b
24
1f
1e
04
23
2a
26
17
18
15
26
17
16
1f
32
18
1f
1c
16
2a
0e
03
0b
16
00
11
3b
38
1b
11
0d
05
28
0a
11
24
07
0c
03
1a
04
2b
07
25
10
22
0a
2a
25
07
30
00
00
18
27
18
27
09
03
3c
07
02
00
1d
23
35
1b
0c
16
31
2a
0d
1a
30
20
35
2f
11
20
28
17
03
0a
27
20
1b
2e
08
08
19
2f
23
1d
32
12
11
20
12
1f
12
2e
1b
27
23
16
1f
1e
2b
14
04
08
1b
13
0b
17
10
16
08
0c
16
10
1d
32
0e
16
02
0b
04
08
0f
00
25
10
24
25
17
33
37
2b
25
12
2d
1f
0e
19
10
2a
09
08
00
0e
1c
17
0f
26
06
07
39
36
37
32
0a
16
0a
25
18
12
27
04
21
0d
03
1a
1f
1c
03
0d
2c
1f
2f
34
0c
0d
1e
18
04
1e
21
0e
0f
1a
26
12
27
35
26
1a
23
21
06
04
1d
03
13
26
14
13
19
1d
25
0b
0b
2a
01
24
1c
1a
01
00
17
07
0b
16
22
02
0d
2b
23
14
0f
27
34
0f
0a
03
27
0c
1f
03
14
02
12
05
23
15
16
1c
1a
0b
0f
16
23
04
28
00
38
06
25
2b
17
0f
27
10
06
1a
1c
02
21
27
1e
1c
1f
25
19
19
1a
17
03
32
13
0a
02
33
13
08
01
1a
2b
27
2f
09
02
01
2a
24
2b
21
2f
1b
00
1f
23
0a
05
01
04
07
0c
09
04
11
16
26
25
31
21
0c
05
01
13
19
32
0a
05
00
0b
00
0f
13
08
28
17
2b
1f
18
12
0e
2a
1f
00
05
0f
2d
21
24
17
10
08
01
05
16
0b
08
27
0c
17
00
02
02
23
2c
27
20
11
13
2f
16
03
14
28
2c
25
06
14
00
24
35
02
20
27
20
2e
22
2b
1d
02
02
05
2f
23
20
02
0a
01
0a
1f
0b
00
06
27
34
13
00
1f
12
0c
00
04
0c
13
2b
1c
08
15
08
0c
01
1d
06
04
04
02
14
0b
25
00
34
29
23
00
00
20
01
0b
11
35
35
35
03
01
02
1c
2b
1a
2d
13
04
08
1b
04
1d
20
09
1a
20
11
33
17
00
1b
09
05
19
09
19
01
24
06
11
2a
19
28
14
04
12
09
0e
39
2a
24
28
08
0a
06
10
03
10
1d
39
26
21
22
19
0d
2b
30
35
2c
03
15
1a
03
13
0c
14
11
29
15
12
08
09
11
0e
1b
18
07
2e
11
0b
0e
10
1b
0b
03
07
2b
0d
31
01
18
10
25
0a
15
1a
3b
06
37
08
0e
19
10
2a
18
12
00
00
0a
18
07
1e
2f
23
03
0f
22
1e
2f
2e
2f
25
2e
1c
2d
20
29
28
1c
24
2c
2f
1c
19
2e
23
22
2d
12
1e
38
17
26
04
02
1b
14
01
0a
1f
16
08
21
19
1a
1e
19
16
0a
02
0a
03
0a
16
11
07
26
23
15
16
0f
03
0a
03
06
02
02
02
0b
04
01
18
19
21
0c
05
0b
23
06
02
11
1b
22
19
22
33
15
1d
1d
08
10
21
0d
02
1b
26
1f
2b
22
2a
1d
29
2b
11
0c
07
14
01
18
17
11
21
2a
07
14
30
25
14
26
22
0e
0c
20
2a
29
2f
35
27
22
2e
39
1e
29
03
0e
20
24
02
0e
00
02
13
2a
1e
35
09
05
17
12
07
15
0d
27
22
1c
19
00
2d
24
11
26
2c
11
08
0b
24
13
18
14
2c
08
09
17
0d
05
2f
0d
16
2b
11
15
0c
22
38
35
2b
02
02
25
2b
1f
1e
10
12
2c
19
14
19
1c
26
0b
17
1d
04
26
35
0f
24
10
13
29
25
2f
29
2a
27
23
28
1d
1f
29
2e
0d
30
23
2c
32
0c
07
2c
1f
0f
15
12
15
1f
2e
0c
16
3e
1b
0d
23
2c
32
0c
07
2c
1c
24
1c
00
16
10
1d
32
0e
16
02
0b
04
08
1b
11
0d
15
25
37
09
06
13
03
14
2e
0a
0e
2c
18
02
05
01
00
09
11
2b
22
20
19
14
05
0c
06
1e
18
21
20
01
01
10
12
2e
2e
26
1c
01
04
12
16
37
10
1a
28
14
38
06
11
25
33
1b
24
1d
1f
2a
26
2f
29
2a
27
23
28
1d
1f
29
2e
0d
30
08
13
36
30
07
11
12
1c
22
04
12
1f
2c
0d
1a
10
27
09
2f
38
1f
0a
06
2c
0e
38
3b
37
15
0b
06
1d
16
18
02
11
2d
21
2f
07
01
05